001EE000 // 0.12060546875
FFFFA000 // -0.00146484375
00136000 // 0.07568359375
FFEC6000 // -0.07666015625
FFFE8000 // -0.005859375
FFDE4000 // -0.1318359375
0011A000 // 0.06884765625
000D2000 // 0.05126953125
FFFEA000 // -0.00537109375
FFEF6000 // -0.06494140625
00064000 // 0.0244140625
0038A000 // 0.22119140625
00054000 // 0.0205078125
FFF06000 // -0.06103515625
FFE2E000 // -0.11376953125
00040000 // 0.015625
